//
// Created by zen on 5/21/23.
//

#include "weights.h"

const double weights1[INPUT_SIZE][HIDDEN_SIZE] = {
        {0.360143305846715,  -0.507137804228345, 1.54848575565727,   -4.87991436806507, -37.6864953174216, 4.48785970824502,   1.60570262539111,  2.93545825642214,   1.53685055193004,   -4.68803147221265},
        {-0.515641702428224, 14.3947430571665,   1.35499022145562,   -23.0339966204988, -30.493482103837,  0.383216025487245,  3.54807359386866,  0.369863793275171,  -7.03898289300982,  -0.669181033898307},
        {1.01288016104394,   12.2335646010795,   0.782409430022472,  -18.4133974591022, -20.6766943688821, -3.97513262717328,  4.00078827932035,  -3.1199704797046,   -5.84090506387811,  3.02679740248669},
        {14.0732456706977,   18.2048744910936,   -0.235483674191147, -40.3899457817877, -18.1066487791877, -10.3390795997494,  0.466632228828215, -7.40024769210473,  -4.45631988249146,  9.17599917508834},
        {-5.76550281414168,  30.9986412231356,   -2.91942761304462,  -27.9171187417906, -10.9888701955362, -14.0337055985337,  -5.00240398816289, -10.0433896955595,  0.744902865622246,  13.5672640154155},
        {66.8242120685204,   13.9563329364332,   -4.2013236877555,   -10.9896323910663, -4.26055579297676, -15.9609076827192,  -11.2544669709258, -7.63839453622995,  8.13821754613453,   21.4912485290846},
        {2.06362933668177,   -15.3160608870471,  1.79625036725701,   35.678533733051,   -3.18200367049439, 7.04653483104493,   1.21117189608081,  5.68124202846476,   7.46866823910481,   -6.87663800999551},
        {4.93769816540301,   -12.1783001564341,  1.51066741100968,   31.593727911743,   18.4108414090243,  4.66660727420273,   2.18003020392348,  4.50385658785262,   4.038605551062,     -4.49979438737057},
        {-8.63034936839,     -12.554365390615,   1.33454194568225,   14.6289703924743,  49.6647155286829,  1.11453843772286,   4.931170204864,    3.02064693299557,   0.222482192076298,  -0.883754955632236},
        {-6.78183993734047,  -21.4543205723185,  -0.444070501962152, 22.9283562937735,  15.6305161918963,  -3.91719873497418,  3.34738961978288,  -0.102810387043454, 6.52683327195646,   4.37180153950148},
        {-24.1937454409447,  -21.79743042055,    -4.50464912800096,  12.1300091780972,  17.4276873780753,  -8.73619668926466,  0.782816272387841, -3.94180395435623,  4.99894142999049,   10.0643573168587},
        {33.951029292311,    -21.9400271056933,  -2.96968277494273,  26.7333927371906,  -0.35405874037636, -6.65980767888385,  -17.8944071753331, 4.40916660572327,   15.8124712523223,   11.5245545194741},
        {-1.51006551691789,  0.152473395944986,  2.85664881327021,   -1.03920371949017, 1.95591953341816,  -0.157387970438032, -0.83696493591926, 0.0195065809078578, -0.779452577826817, 0.0924954092954095},
        {-20.6911241889636,  -5.50996491194493,  -0.844157745482155, 9.24709245353569,  -11.2044420292157, -0.555875240226234, 0.872399143238638, -2.31189591396113,  -4.78195985415703,  2.69541863848176},
        {-2.80863479239432,  4.30067254227412,   -1.37120785889463,  -1.6568660052362,  -1.04630008168564, 2.80479873721547,   -2.03720842009594, 0.726599510602248,  -2.23638501652797,  -0.83690816318709},
        {-12.6641838366867,  -37.629359901329,   2.89450169953498,   20.8456753982436,  4.91160148624016,  -0.374794194280368, 6.29026798215882,  7.13350488498217,   -0.77119359949766,  1.709035898367}
};


const double weights2[HIDDEN_SIZE][OUTPUT_SIZE] = {
        {-0.22020566328213, -7.79866288568729, 7.91615602952621,   -2.32490633242547},
        {-7.38750563058185, -14.4376600889459, -15.0105039927823,  15.1110415786141},
        {0.253555681279946, -2.07311938816593, -7.83641163792928,  0.0302022896996967},
        {7.80617516728508,  9.21537311620996,  -8.00234568109925,  -5.84277132100095},
        {5.36886920495217,  -8.25785764075171, 9.03260706275783,   -9.54501280036985},
        {7.5734649899876,   -1.25891908990325, 2.73031962157005,   -9.23934175827547},
        {-3.88178596254671, -7.51658604630891, 3.71793243484628,   2.75803855744899},
        {4.96789981891669,  -1.79895133143834, -2.50174542961017,  -3.59579980221783},
        {-1.36415587000791, 15.5749525974504,  -14.5795870687853,  -4.97206720967374},
        {-16.3312132481532, 1.17237658724021,  -0.375206986143815, 4.09413423341617}
};


const double biases1[HIDDEN_SIZE] = {-32.9906307642155, 21.8762587895805, -2.30279696644251, 0.275798270270187,
                                     -17.4710159145636, -9.39520642668356, -1.80832531314432,
                                     -6.96931503692159, -11.6196483578377, 9.17192154803099};

const double biases2[OUTPUT_SIZE] = {-2.67280761239192, -3.03773057061151, 0.407743194841547, -3.25027314748033};